#pragma once

#ifdef __has_attribute
#define HAVE_ATTRIBUTE(x) __has_attribute(x)
#else
#define HAVE_ATTRIBUTE(x) 0
#endif
#if HAVE_ATTRIBUTE(aligned) || (defined(__GNUC__) && !defined(__clang__))
#define DATA_ALIGN_ATTRIBUTE __attribute__((aligned(4)))
#else
#define DATA_ALIGN_ATTRIBUTE
#endif

// automatically configure network
#define TF_NUM_INPUTS 3
#define TF_NUM_OUTPUTS 5
#define TF_NUM_OPS 2
#define TF_OP_SOFTMAX
#define TF_OP_FULLYCONNECTED



// sample data 
float x0[3] = {-0.63f, -0.52f, 1.02f};
float x1[3] = {-0.63f, -0.51f, 1.02f};
float x2[3] = {-0.63f, -0.52f, 1.02f};
float x3[3] = {-0.62f, -0.53f, 1.02f};
float x4[3] = {-0.62f, -0.51f, 1.03f};


/** model size = 5140 bytes **/
const unsigned char Accelerometer_model[] DATA_ALIGN_ATTRIBUTE = { 0x1c, 0x00, 0x00, 0x00, 0x54, 0x46, 0x4c, 0x33, 0x14, 0x00, 0x20, 0x00, 0x1c, 0x00, 0x18, 0x00, 0x14, 0x00, 0x10, 0x00, 0x0c, 0x00, 0x00, 0x00, 0x08, 0x00, 0x04, 0x00, 0x14, 0x00, 0x00, 0x00, 0x1c, 0x00, 0x00, 0x00, 0x98, 0x00, 0x00, 0x00, 0xf0, 0x00, 0x00, 0x00, 0x98, 0x0d, 0x00, 0x00, 0xa8, 0x0d, 0x00, 0x00, 0xb0, 0x13, 0x00, 0x00, 0x03, 0x00, 0x00, 0x00, 0x01, 0x00, 0x00, 0x00, 0x10, 0x00, 0x00, 0x00, 0x00, 0x00, 0x0a, 0x00, 0x10, 0x00, 0x0c, 0x00, 0x08, 0x00, 0x04, 0x00, 0x0a, 0x00, 0x00, 0x00, 0x0c, 0x00, 0x00, 0x00, 0x1c, 0x00, 0x00, 0x00, 0x3c, 0x00, 0x00, 0x00, 0x0f, 0x00, 0x00, 0x00, 0x73, 0x65, 0x72, 0x76, 0x69, 0x6e, 0x67, 0x5f, 0x64, 0x65, 0x66, 0x61, 0x75, 0x6c, 0x74, 0x00, 0x01, 0x00, 0x00, 0x00, 0x04, 0x00, 0x00, 0x00, 0x90, 0xff, 0xff, 0xff, 0x0a, 0x00, 0x00, 0x00, 0x04, 0x00, 0x00, 0x00, 0x08, 0x00, 0x00, 0x00, 0x64, 0x65, 0x6e, 0x73, 0x65, 0x5f, 0x33, 0x38, 0x00, 0x00, 0x00, 0x00, 0x01, 0x00, 0x00, 0x00, 0x04, 0x00, 0x00, 0x00, 0x4e, 0xf2, 0xff, 0xff, 0x04, 0x00, 0x00, 0x00, 0x0e, 0x00, 0x00, 0x00, 0x64, 0x65, 0x6e, 0x73, 0x65, 0x5f, 0x33, 0x36, 0x5f, 0x69, 0x6e, 0x70, 0x75, 0x74, 0x00, 0x00, 0x02, 0x00, 0x00, 0x00, 0x34, 0x00, 0x00, 0x00, 0x04, 0x00, 0x00, 0x00, 0xdc, 0xff, 0xff, 0xff, 0x0d, 0x00, 0x00, 0x00, 0x04, 0x00, 0x00, 0x00, 0x13, 0x00, 0x00, 0x00, 0x43, 0x4f, 0x4e, 0x56, 0x45, 0x52, 0x53, 0x49, 0x4f, 0x4e, 0x5f, 0x4d, 0x45, 0x54, 0x41, 0x44, 0x41, 0x54, 0x41, 0x00, 0x08, 0x00, 0x0c, 0x00, 0x08, 0x00, 0x04, 0x00, 0x08, 0x00, 0x00, 0x00, 0x0c, 0x00, 0x00, 0x00, 0x04, 0x00, 0x00, 0x00, 0x13, 0x00, 0x00, 0x00, 0x6d, 0x69, 0x6e, 0x5f, 0x72, 0x75, 0x6e, 0x74, 0x69, 0x6d, 0x65, 0x5f, 0x76, 0x65, 0x72, 0x73, 0x69, 0x6f, 0x6e, 0x00, 0x0e, 0x00, 0x00, 0x00, 0xa4, 0x0c, 0x00, 0x00, 0x9c, 0x0c, 0x00, 0x00, 0x78, 0x0c, 0x00, 0x00, 0x28, 0x0c, 0x00, 0x00, 0x98, 0x0b, 0x00, 0x00, 0x08, 0x0a, 0x00, 0x00, 0xf8, 0x01, 0x00, 0x00, 0xa8, 0x00, 0x00, 0x00, 0xa0, 0x00, 0x00, 0x00, 0x98, 0x00, 0x00, 0x00, 0x90, 0x00, 0x00, 0x00, 0x88, 0x00, 0x00, 0x00, 0x68, 0x00, 0x00, 0x00, 0x04, 0x00, 0x00, 0x00, 0x02, 0xf3, 0xff, 0xff, 0x04, 0x00, 0x00, 0x00, 0x54, 0x00, 0x00, 0x00, 0x0c, 0x00, 0x00, 0x00, 0x08, 0x00, 0x0e, 0x00, 0x08, 0x00, 0x04, 0x00, 0x08, 0x00, 0x00, 0x00, 0x10, 0x00, 0x00, 0x00, 0x24, 0x00, 0x00, 0x00, 0x00, 0x00, 0x06, 0x00, 0x08, 0x00, 0x04, 0x00, 0x06, 0x00, 0x00, 0x00, 0x04, 0x00, 0x00, 0x00, 0x00, 0x00, 0x00, 0x00, 0x00, 0x00, 0x0a, 0x00, 0x10, 0x00, 0x0c, 0x00, 0x08, 0x00, 0x04, 0x00, 0x0a, 0x00, 0x00, 0x00, 0x02, 0x00, 0x00, 0x00, 0x02, 0x00, 0x00, 0x00, 0x04, 0x00, 0x00, 0x00, 0x06, 0x00, 0x00, 0x00, 0x32, 0x2e, 0x31, 0x35, 0x2e, 0x30, 0x00, 0x00, 0x62, 0xf3, 0xff, 0xff, 0x04, 0x00, 0x00, 0x00, 0x10, 0x00, 0x00, 0x00, 0x31, 0x2e, 0x35, 0x2e, 0x30, 0x00, 0x00, 0x00, 0x00, 0x00, 0x00, 0x00, 0x00, 0x00, 0x00, 0x00, 0x28, 0xee, 0xff, 0xff, 0x2c, 0xee, 0xff, 0xff, 0x30, 0xee, 0xff, 0xff, 0x34, 0xee, 0xff, 0xff, 0x8e, 0xf3, 0xff, 0xff, 0x04, 0x00, 0x00, 0x00, 0x40, 0x01, 0x00, 0x00, 0xd9, 0x57, 0xed, 0xbe, 0xfd, 0x34, 0xa3, 0x3f, 0xcd, 0x7b, 0x57, 0x3f, 0xf8, 0x56, 0x19, 0xbf, 0x5b, 0x6f, 0x1e, 0x3f, 0x03, 0x5d, 0x9a, 0xc0, 0x9c, 0xf8, 0xfc, 0xbd, 0xf5, 0x1b, 0x19, 0xbe, 0xab, 0xd3, 0xce, 0xbd, 0x74, 0x24, 0x7b, 0xbf, 0x2d, 0xbf, 0xf9, 0xbe, 0xb2, 0xa9, 0xa7, 0x3e, 0x20, 0x33, 0xd7, 0x3e, 0xc7, 0x0e, 0x84, 0xbf, 0xd4, 0xb1, 0x7c, 0xbe, 0xb2, 0x29, 0x4f, 0x3f, 0x4f, 0x92, 0x00, 0x3c, 0x98, 0x78, 0x2a, 0xbf, 0x82, 0xb5, 0x25, 0xbf, 0xd3, 0xe7, 0x21, 0x3f, 0x32, 0xb7, 0x09, 0xbf, 0xfa, 0xfa, 0x9d, 0x40, 0x7a, 0x42, 0x8a, 0xbe, 0xca, 0x1f, 0x0e, 0x3f, 0x88, 0x5d, 0xa0, 0x3f, 0xef, 0x04, 0x32, 0xbf, 0x77, 0x42, 0xcb, 0xbe, 0x10, 0xc2, 0x43, 0xc0, 0x1f, 0x6b, 0xe2, 0xbe, 0x09, 0x6b, 0x45, 0xbf, 0x56, 0xb9, 0xa0, 0x3e, 0x47, 0x34, 0x10, 0xc0, 0xbc, 0xaf, 0xfc, 0x3e, 0xc4, 0x70, 0x92, 0xbf, 0x50, 0x76, 0x92, 0x3e, 0x76, 0x14, 0xfe, 0x3f, 0x44, 0x42, 0x42, 0xbf, 0x2e, 0x96, 0x2f, 0xbd, 0x6f, 0xea, 0xdd, 0xbe, 0xf6, 0x75, 0x1b, 0xc1, 0xdd, 0xef, 0x48, 0xbf, 0x77, 0x0b, 0x6e, 0x3d, 0x83, 0x50, 0xb7, 0xbe, 0xbc, 0x18, 0x27, 0xbe, 0x0b, 0xbe, 0x1d, 0x3d, 0xb3, 0x73, 0x0d, 0x3d, 0xc7, 0x1d, 0x55, 0xbe, 0xa0, 0xba, 0x27, 0x3e, 0x39, 0xeb, 0xda, 0x3e, 0x1e, 0x60, 0xfc, 0xbe, 0xe2, 0x32, 0x17, 0xbf, 0xb3, 0x27, 0x06, 0xc0, 0x4b, 0x70, 0xac, 0xbf, 0x7a, 0x87, 0x68, 0xbe, 0x30, 0xb9, 0x08, 0xbd, 0xbe, 0x86, 0x30, 0x40, 0x85, 0x26, 0xdc, 0xbf, 0xcc, 0xa3, 0x11, 0x3f, 0xb8, 0xc5, 0xd6, 0x3e, 0x5e, 0x94, 0x15, 0x3f, 0x64, 0x05, 0xbc, 0x3e, 0x50, 0xb6, 0x0b, 0x3f, 0xe1, 0x09, 0xd8, 0xbe, 0x49, 0x7d, 0x8a, 0x3e, 0xe1, 0xfb, 0x89, 0xbe, 0x40, 0x0f, 0x4e, 0x3f, 0x96, 0x11, 0x2a, 0x3c, 0x0e, 0x84, 0xf6, 0xba, 0x0b, 0xec, 0x27, 0x3e, 0xc5, 0x7f, 0xdb, 0xbf, 0x5a, 0x29, 0x44, 0xbe, 0x50, 0xe7, 0x17, 0x3f, 0x36, 0x51, 0x9a, 0xc0, 0xb3, 0xfa, 0xfe, 0xbe, 0xb6, 0x9a, 0xeb, 0x3e, 0xcf, 0x0e, 0x0a, 0x3e, 0xf9, 0xa5, 0x0b, 0xbc, 0x99, 0xf6, 0x07, 0xbe, 0x60, 0xca, 0x19, 0x3c, 0x91, 0x11, 0x6b, 0xbd, 0xda, 0xf4, 0xff, 0xff, 0x04, 0x00, 0x00, 0x00, 0x00, 0x08, 0x00, 0x00, 0x8d, 0x91, 0x64, 0xbe, 0xbd, 0x78, 0x5f, 0xbe, 0x39, 0x00, 0x56, 0xbe, 0xc8, 0x32, 0x95, 0xbe, 0x44, 0x35, 0xa9, 0x3d, 0xf6, 0xb3, 0x3e, 0x3e, 0x62, 0xde, 0x8b, 0xbe, 0x9c, 0xb0, 0x09, 0xbe, 0x8e, 0x2d, 0x38, 0x3e, 0x70, 0xf1, 0x74, 0x3c, 0x00, 0xd4, 0x26, 0x3d, 0x4b, 0x84, 0xbf, 0x3d, 0x77, 0x3f, 0x01, 0xbe, 0x8e, 0x4d, 0x18, 0x3e, 0xc0, 0x54, 0xcf, 0xbb, 0xf1, 0x96, 0x83, 0xbe, 0x06, 0xde, 0x86, 0xbe, 0x85, 0x8d, 0x94, 0x3c, 0xa3, 0x04, 0x42, 0xbc, 0xef, 0xcb, 0x73, 0x3e, 0x57, 0x69, 0x96, 0xbe, 0x44, 0x1b, 0xa2, 0xbe, 0x24, 0x1c, 0xa4, 0xbd, 0x1d, 0x67, 0x9f, 0xbd, 0x87, 0x58, 0x72, 0xbe, 0x92, 0xd8, 0x52, 0x3e, 0x10, 0x69, 0xa3, 0xbe, 0x8f, 0x32, 0x4e, 0xbe, 0x67, 0x2e, 0x63, 0x3e, 0x45, 0x19, 0x38, 0xbe, 0x21, 0x13, 0x5c, 0xbe, 0xf6, 0x8b, 0x68, 0x3d, 0x00, 0xfb, 0x31, 0x3f, 0x83, 0x39, 0xf5, 0x3e, 0xad, 0xac, 0x1f, 0x3f, 0x42, 0xba, 0x7e, 0xbe, 0x42, 0x8e, 0x73, 0x3e, 0xfe, 0x0f, 0x0d, 0x3f, 0xaf, 0x51, 0x3d, 0x3f, 0xee, 0x81, 0x62, 0x3e, 0x8e, 0xfe, 0xdf, 0xbe, 0x60, 0x6f, 0x83, 0xbd, 0x94, 0xf8, 0x0e, 0x3e, 0x8e, 0xf8, 0x3b, 0x40, 0x77, 0x87, 0x48, 0x3e, 0x13, 0x25, 0x84, 0x3e, 0xd9, 0x27, 0x8c, 0x3e, 0xd9, 0x0d, 0x9e, 0x3d, 0x97, 0xc4, 0x88, 0x3e, 0xf8, 0x37, 0xcf, 0xbd, 0x48, 0x44, 0x98, 0x3c, 0xd6, 0xcc, 0xc6, 0xbe, 0x8c, 0x0f, 0x0d, 0x3f, 0x24, 0x04, 0xd9, 0x3e, 0x85, 0x22, 0xe0, 0x3d, 0xe8, 0xe1, 0x83, 0x40, 0x47, 0x35, 0x47, 0x40, 0x43, 0x38, 0x28, 0xb9, 0x3e, 0x70, 0x07, 0xbe, 0x2d, 0x52, 0x12, 0x3e, 0x39, 0x18, 0xb2, 0xbd, 0xb0, 0xd3, 0x5d, 0x3d, 0x10, 0x10, 0x43, 0x3d, 0x7a, 0x32, 0xee, 0xbd, 0x39, 0x0c, 0x26, 0x3e, 0xa5, 0xd2, 0x00, 0xbd, 0xc5, 0x04, 0xb6, 0x3e, 0xe4, 0x1f, 0x87, 0x3e, 0x72, 0xba, 0x5e, 0x3e, 0x46, 0xbf, 0x72, 0xbe, 0x11, 0x4d, 0x14, 0x3e, 0xf1, 0x7a, 0x86, 0xbe, 0x32, 0x0b, 0x87, 0x3e, 0xd5, 0x75, 0x45, 0x3e, 0xd1, 0x56, 0x4f, 0xbe, 0xc0, 0xa1, 0x61, 0x3f, 0xdd, 0x44, 0x9c, 0xbe, 0xac, 0xa3, 0xce, 0xbd, 0x0d, 0xd9, 0x82, 0xbe, 0x88, 0x9d, 0xd2, 0xbd, 0xef, 0xf6, 0x9d, 0x3f, 0x98, 0xfa, 0x47, 0x3e, 0xb0, 0xff, 0x64, 0x3d, 0xc1, 0xa7, 0xab, 0xbe, 0xff, 0xb1, 0x8d, 0x3f, 0xbf, 0x53, 0x85, 0xbe, 0xc6, 0xbd, 0xce, 0xbb, 0x96, 0x0d, 0x6f, 0x40, 0x39, 0x41, 0x0c, 0x40, 0x03, 0xbd, 0xe4, 0x3d, 0xb3, 0xdd, 0xb6, 0x3e, 0xfd, 0x8c, 0x67, 0x3e, 0x46, 0x84, 0x8c, 0x3e, 0x4b, 0x7a, 0xb5, 0x3d, 0xe0, 0xb1, 0xc4, 0x3d, 0x35, 0x74, 0xae, 0x3c, 0x4f, 0x11, 0x17, 0xbf, 0xac, 0x4f, 0xc0, 0xbe, 0x7c, 0xc6, 0x94, 0xbe, 0x95, 0xf5, 0x9f, 0x3e, 0xd3, 0xa6, 0x92, 0x3f, 0x11, 0x2c, 0x94, 0xbe, 0x4a, 0x4b, 0xa6, 0xbe, 0x40, 0x37, 0x9b, 0xbb, 0x07, 0x84, 0xc0, 0xbe, 0xab, 0x09, 0x84, 0x3f, 0x82, 0x7f, 0x40, 0x3e, 0x85, 0xcc, 0x19, 0xc1, 0x72, 0x52, 0xb6, 0xbe, 0xf6, 0x60, 0x73, 0x3e, 0x34, 0x6b, 0x8a, 0x3d, 0x1a, 0xd4, 0x3e, 0xbd, 0xb1, 0x0e, 0xe4, 0x3f, 0x04, 0xc9, 0x2e, 0x3f, 0xba, 0x6a, 0xfd, 0x3e, 0x01, 0x44, 0xd5, 0xbe, 0xea, 0xba, 0xf0, 0x3f, 0xd0, 0xf8, 0x56, 0xbf, 0x82, 0x0a, 0x5d, 0xbe, 0xbb, 0x54, 0x50, 0xc0, 0x49, 0x2d, 0xf9, 0xbf, 0x88, 0x40, 0x28, 0x3f, 0xda, 0x5f, 0x12, 0x3f, 0x4b, 0xf8, 0x9e, 0x3e, 0xa6, 0x03, 0x76, 0x3f, 0xdb, 0x05, 0xb8, 0xbe, 0x07, 0xb4, 0x9d, 0x3e, 0xd3, 0x62, 0x50, 0x3f, 0x46, 0xae, 0xcb, 0x3e, 0x86, 0xe9, 0xb9, 0x3b, 0xab, 0xcf, 0x1f, 0x3f, 0x5b, 0x9a, 0xa3, 0x3e, 0xe3, 0xfc, 0x34, 0x3f, 0x61, 0xd7, 0xc7, 0x3e, 0x7e, 0xc4, 0xed, 0x3e, 0x0a, 0xad, 0xe0, 0xbd, 0x40, 0x58, 0x7d, 0xbe, 0x24, 0xdf, 0x36, 0x3e, 0x43, 0x43, 0x8f, 0x3e, 0xf8, 0xaa, 0xfc, 0x3f, 0x84, 0x50, 0x8b, 0x3d, 0x66, 0x8c, 0x9d, 0xbe, 0x80, 0x95, 0x65, 0xbb, 0xbe, 0x65, 0xb2, 0x3d, 0xc8, 0xec, 0x94, 0x3e, 0xa2, 0x21, 0x5e, 0x3e, 0x63, 0xd1, 0x85, 0xbd, 0x59, 0x07, 0x06, 0xbf, 0x9b, 0xdd, 0x89, 0x3f, 0xc6, 0xcb, 0xcc, 0x3e, 0x01, 0x2a, 0xfb, 0x3d, 0x29, 0xb8, 0x66, 0x40, 0x50, 0x1e, 0x54, 0x40, 0x38, 0xad, 0xd1, 0x3e, 0x3e, 0x19, 0x6b, 0xbe, 0x42, 0x62, 0x37, 0xbc, 0x1f, 0xf1, 0x60, 0x3c, 0x0d, 0x86, 0xf1, 0xbe, 0x47, 0x5f, 0x14, 0xbe, 0x07, 0xd8, 0xdd, 0x3d, 0x4d, 0x45, 0x97, 0xbf, 0xe7, 0x58, 0x83, 0xbf, 0x67, 0xf9, 0x08, 0x3f, 0x30, 0xed, 0x20, 0xbd, 0xa8, 0x7e, 0xc2, 0x3d, 0x0d, 0xec, 0x76, 0xbf, 0x4a, 0x02, 0xc2, 0xbf, 0xdd, 0xda, 0xa6, 0x3e, 0xab, 0x9e, 0x0b, 0xc0, 0x5a, 0x9d, 0x09, 0x3e, 0xf6, 0x57, 0xf5, 0xbd, 0x65, 0xd9, 0x12, 0xbf, 0x7d, 0xf6, 0x20, 0xc0, 0xf9, 0xeb, 0x31, 0xbe, 0x96, 0x65, 0x5a, 0xbe, 0x86, 0x91, 0x92, 0xbf, 0x5b, 0xc2, 0x28, 0x3f, 0x3f, 0xc4, 0x10, 0x3d, 0x7b, 0x30, 0x9b, 0x3d, 0xaa, 0x6d, 0xc6, 0x3d, 0xa8, 0xb2, 0x4d, 0x3f, 0xbb, 0x24, 0x9b, 0xbf, 0x74, 0xe7, 0xd4, 0xbf, 0xa3, 0x75, 0x25, 0xc0, 0x6d, 0x64, 0xa6, 0x3e, 0x23, 0x7f, 0x44, 0xbd, 0x8f, 0x31, 0x9f, 0x3d, 0x68, 0x53, 0x1d, 0x3e, 0x81, 0x79, 0x9a, 0x3e, 0x06, 0xa0, 0x17, 0xc0, 0xb0, 0x55, 0xe4, 0xbc, 0x28, 0xfe, 0x2e, 0xbd, 0x6d, 0x4a, 0x8e, 0x3e, 0x62, 0x2d, 0x61, 0x3e, 0xf8, 0x2b, 0x96, 0xbe, 0x6a, 0x98, 0x11, 0xbe, 0x27, 0x69, 0x88, 0x3e, 0x8a, 0xd0, 0xaf, 0xbe, 0xe8, 0x52, 0x69, 0x3d, 0xf5, 0xb1, 0x6e, 0xbe, 0xe6, 0x99, 0x20, 0x3e, 0xad, 0x49, 0x9d, 0xbe, 0xe9, 0x4a, 0x35, 0xbe, 0xb0, 0x33, 0x70, 0xbd, 0x16, 0x20, 0x2c, 0xbe, 0x2a, 0x06, 0x2d, 0xbe, 0x3e, 0x01, 0x90, 0xbe, 0x1a, 0xf1, 0xe8, 0xbd, 0x39, 0x07, 0x91, 0x3e, 0x74, 0x0a, 0xac, 0xbe, 0xde, 0xbd, 0x9a, 0xbe, 0xb0, 0x28, 0xa2, 0x3d, 0xf6, 0xb1, 0x7e, 0xbe, 0xd2, 0x82, 0x0a, 0x3e, 0xc7, 0x78, 0xa1, 0xbe, 0x71, 0xbb, 0x93, 0x3e, 0x0c, 0x95, 0xbc, 0xbd, 0x94, 0xf6, 0x8e, 0xbe, 0x28, 0xcb, 0x41, 0xbd, 0xaf, 0xbd, 0x8f, 0x3e, 0x61, 0xce, 0x50, 0xbe, 0x6a, 0x7e, 0x90, 0xbe, 0x07, 0x34, 0x37, 0xbe, 0xe1, 0x02, 0xa9, 0xbe, 0x1a, 0xb9, 0xaa, 0xbf, 0x55, 0x7d, 0xad, 0xbf, 0x99, 0x22, 0x83, 0xbf, 0xc3, 0xe1, 0x7c, 0xbe, 0x1f, 0x35, 0x96, 0x3f, 0x2f, 0x92, 0xac, 0xbf, 0x1b, 0xaa, 0x7d, 0xbf, 0x24, 0x7c, 0x35, 0xbe, 0x32, 0xf4, 0x84, 0xbe, 0x20, 0x20, 0x0c, 0x3f, 0xa9, 0x0a, 0x7f, 0xbe, 0x96, 0x1c, 0xca, 0x40, 0xff, 0x7c, 0xb9, 0xbe, 0x50, 0x3e, 0xec, 0xbd, 0x81, 0xa6, 0x97, 0x3e, 0xa3, 0x6f, 0x06, 0xbf, 0xd9, 0x13, 0x84, 0x3f, 0xeb, 0xb8, 0x4e, 0x3f, 0x91, 0x26, 0x1e, 0x3f, 0x5d, 0x19, 0x9a, 0xbe, 0x0e, 0x61, 0x9a, 0x3f, 0x11, 0x92, 0xc3, 0xbf, 0xfb, 0xc6, 0x4e, 0xbe, 0x0b, 0x39, 0xae, 0xbe, 0xe5, 0x91, 0x37, 0x3f, 0x19, 0x4e, 0x22, 0x3f, 0x91, 0x97, 0x88, 0xbe, 0x50, 0x17, 0x12, 0x3e, 0x19, 0x24, 0x8e, 0x3f, 0xc4, 0x57, 0x14, 0xbf, 0xf6, 0xa1, 0x3a, 0x3e, 0x37, 0x8a, 0x76, 0x3f, 0x8e, 0xef, 0x4f, 0x3c, 0x2d, 0x2c, 0x72, 0x3d, 0xbe, 0x45, 0x13, 0x3f, 0x90, 0x73, 0x5e, 0x3d, 0x58, 0x77, 0xc5, 0x3e, 0xc8, 0x37, 0x11, 0x3e, 0x7f, 0xc9, 0x0c, 0x3e, 0xf5, 0x9d, 0x85, 0x3e, 0x38, 0x05, 0xb9, 0xbf, 0xfb, 0x08, 0x2e, 0x3f, 0x40, 0x77, 0x65, 0xbe, 0xa0, 0x92, 0x62, 0x3f, 0xcd, 0x04, 0xcb, 0xbf, 0x89, 0x40, 0x48, 0xbe, 0xe3, 0x69, 0x42, 0xbe, 0x95, 0x6d, 0x14, 0xbf, 0x67, 0x29, 0x1e, 0x3f, 0x8a, 0x5d, 0x10, 0x3f, 0xdd, 0xb6, 0xfe, 0x3e, 0x43, 0xaf, 0xaf, 0xbe, 0xbb, 0x4c, 0x55, 0x3f, 0x04, 0x93, 0xef, 0x3e, 0xde, 0x79, 0xc9, 0xbf, 0xdd, 0x34, 0xae, 0xbf, 0xdf, 0x05, 0x30, 0x3f, 0xac, 0x56, 0xa2, 0x3e, 0x74, 0xfd, 0xeb, 0x3d, 0xf4, 0x84, 0xdc, 0xbb, 0x68, 0x11, 0x78, 0x3e, 0x45, 0x0d, 0xaf, 0xbf, 0x98, 0xe2, 0x7a, 0x3d, 0x5f, 0x31, 0x30, 0x3e, 0xc1, 0x49, 0xbb, 0xbe, 0x33, 0xbe, 0x56, 0x3e, 0x5f, 0x3a, 0x82, 0xbe, 0x54, 0x35, 0xa9, 0x3e, 0xb6, 0x72, 0xd4, 0xbd, 0x50, 0xd5, 0x55, 0x3c, 0xfb, 0xa9, 0xa1, 0xbe, 0xda, 0xbe, 0x75, 0x3e, 0x42, 0x47, 0x91, 0x3e, 0x94, 0xd2, 0x16, 0xbe, 0xba, 0x68, 0x26, 0x3e, 0xce, 0xc3, 0xfe, 0xbf, 0x07, 0xae, 0xec, 0x3c, 0x32, 0x6b, 0x17, 0xbe, 0x68, 0x15, 0xf0, 0x3d, 0x41, 0xe9, 0xe1, 0x3e, 0xbc, 0x94, 0x51, 0xbf, 0x61, 0x20, 0x83, 0x3e, 0xe6, 0xc4, 0x8d, 0x3e, 0xcb, 0xb3, 0x6c, 0x3e, 0xe4, 0x0f, 0x7b, 0xbf, 0x16, 0x12, 0xcb, 0x3d, 0x42, 0xb6, 0xfc, 0x3e, 0xdd, 0x1e, 0xda, 0xbf, 0x49, 0x8b, 0x3d, 0xc0, 0x0d, 0x46, 0x10, 0xbe, 0x2e, 0x70, 0xf7, 0x3e, 0x36, 0x10, 0x83, 0x3d, 0xe2, 0x4e, 0xac, 0x3e, 0xf1, 0x46, 0xaa, 0x3e, 0xbc, 0x9f, 0x9f, 0xbe, 0x31, 0xc5, 0xc8, 0x3e, 0x35, 0xd5, 0xa1, 0xbe, 0x2e, 0x82, 0x63, 0x3e, 0x36, 0xfc, 0x1e, 0x3e, 0x42, 0xa0, 0x42, 0x3e, 0x17, 0xd9, 0x6a, 0xbe, 0xcc, 0xa7, 0x11, 0xbe, 0xf6, 0x88, 0x1e, 0x3e, 0x80, 0x0b, 0xc9, 0xbc, 0x95, 0x5b, 0x16, 0xbd, 0x4a, 0x23, 0xea, 0xbd, 0x2f, 0x31, 0xa9, 0x3e, 0xb8, 0x44, 0x9a, 0xbd, 0x08, 0x5c, 0xb7, 0x3d, 0x4c, 0xa7, 0xcb, 0xbd, 0xd0, 0x92, 0xab, 0xbc, 0x85, 0x5f, 0xb4, 0xbc, 0xea, 0xdc, 0x9a, 0xbe, 0x39, 0x62, 0xb2, 0xbc, 0x5b, 0x62, 0x22, 0x3d, 0x16, 0x80, 0xf0, 0xbd, 0x0d, 0xcc, 0x3c, 0xbe, 0x45, 0xdf, 0xa1, 0x3d, 0x43, 0xd2, 0x3a, 0x3e, 0x3e, 0xb7, 0x94, 0x3d, 0x56, 0x92, 0x67, 0x3d, 0x36, 0x37, 0xb6, 0xbd, 0xcd, 0xde, 0x56, 0xbe, 0x42, 0xe9, 0x54, 0xbe, 0xf0, 0xe9, 0x8d, 0xbe, 0xbd, 0x7a, 0x26, 0xbe, 0xea, 0x71, 0x37, 0x3e, 0x7a, 0x95, 0xdf, 0x3d, 0x93, 0x71, 0x20, 0x3f, 0xd0, 0x7c, 0x3a, 0x3f, 0xa3, 0xdc, 0x17, 0x3e, 0x02, 0x78, 0x64, 0x3e, 0xac, 0x1a, 0x4b, 0xbf, 0xd5, 0x44, 0x52, 0x3f, 0xa8, 0x42, 0x78, 0x3f, 0x9c, 0x9c, 0xe6, 0xbd, 0xe2, 0x5c, 0x4e, 0x3f, 0xaf, 0x00, 0x7e, 0xbd, 0x70, 0x97, 0xb9, 0x3d, 0xfd, 0x2d, 0xa3, 0x40, 0xe6, 0x7f, 0x8d, 0x3f, 0x22, 0x35, 0x33, 0x3e, 0x5a, 0xe8, 0x97, 0xbe, 0x00, 0x22, 0x72, 0x3f, 0x3b, 0x8e, 0x3c, 0xbe, 0xfb, 0x86, 0xf8, 0x3d, 0x74, 0xcb, 0xd4, 0x3e, 0x31, 0x06, 0xf2, 0x3e, 0xec, 0xec, 0x64, 0xbf, 0x89, 0x83, 0x38, 0x3f, 0xf9, 0x25, 0x50, 0x3f, 0x3c, 0x03, 0x04, 0x40, 0xc4, 0x47, 0xa4, 0x3f, 0xbe, 0xf3, 0x80, 0xbe, 0x52, 0x4f, 0x3c, 0x3e, 0x52, 0x9e, 0xd5, 0x3e, 0x79, 0xcb, 0x34, 0xbe, 0xdf, 0x18, 0x11, 0x3f, 0x26, 0xe6, 0x66, 0x3e, 0x9f, 0xb3, 0x93, 0x3d, 0xd3, 0x4e, 0x90, 0x3e, 0x93, 0x7d, 0xa3, 0xbe, 0x04, 0x87, 0xa8, 0x3d, 0xcb, 0xb9, 0x02, 0xbe, 0x84, 0x50, 0xad, 0xbe, 0x4d, 0x7a, 0x65, 0x3e, 0x5b, 0x06, 0x7e, 0xbe, 0xd0, 0x72, 0xab, 0xbe, 0xba, 0x1b, 0x9f, 0xbe, 0xa5, 0x48, 0x5d, 0xbe, 0x16, 0x64, 0x55, 0x3e, 0x82, 0x15, 0xad, 0xbe, 0xd9, 0xdb, 0x86, 0x3c, 0x90, 0xc1, 0xb0, 0xbe, 0xf8, 0x21, 0x27, 0x3d, 0xd3, 0x2e, 0x8d, 0xbe, 0xb4, 0x98, 0x8f, 0x3e, 0x3a, 0x78, 0xa5, 0x3d, 0xf8, 0x62, 0x17, 0x3e, 0xc1, 0xd0, 0x3d, 0xbe, 0xf3, 0x7e, 0x39, 0x3e, 0x5e, 0xa5, 0xab, 0xbd, 0x4b, 0x06, 0x87, 0x3d, 0x90, 0x19, 0x21, 0x3d, 0x64, 0xbc, 0x9f, 0x3e, 0x65, 0x20, 0x9e, 0xbe, 0x56, 0x9e, 0x24, 0x3e, 0xe0, 0xc4, 0x7c, 0x3e, 0xca, 0x61, 0x83, 0x3e, 0x94, 0xfd, 0xfc, 0xbd, 0xaa, 0x1c, 0x7c, 0xbe, 0xcc, 0x4a, 0x11, 0xbe, 0xc8, 0x9e, 0x33, 0xbe, 0x72, 0x13, 0x0e, 0xbe, 0x08, 0x24, 0x0c, 0x3e, 0x82, 0x4b, 0x67, 0x3e, 0x60, 0xe4, 0x9b, 0xbe, 0x8f, 0xb8, 0x95, 0x3e, 0x31, 0xe8, 0xb0, 0x3d, 0x1e, 0x84, 0x39, 0xbe, 0x95, 0x45, 0x0b, 0x3f, 0x2d, 0x90, 0xf4, 0xbd, 0xbd, 0x92, 0x2a, 0xbe, 0xf5, 0x80, 0x07, 0xc0, 0x46, 0x60, 0x07, 0x3f, 0x4e, 0x89, 0x11, 0x3e, 0x6f, 0x20, 0x88, 0x3e, 0x30, 0x9a, 0xde, 0x3e, 0x49, 0xd9, 0x60, 0xbf, 0xed, 0xb2, 0xa8, 0x3e, 0xce, 0x1f, 0x8d, 0x3e, 0x86, 0xc7, 0x8f, 0x3e, 0x49, 0xb2, 0xfe, 0xbe, 0xfc, 0x0a, 0x43, 0x3c, 0xce, 0xa7, 0x15, 0x3e, 0xa7, 0x3e, 0xeb, 0xbf, 0x77, 0xe1, 0x3b, 0xc0, 0xc2, 0xc3, 0x98, 0x3e, 0x08, 0x60, 0xc0, 0x3d, 0x0c, 0xaf, 0x12, 0xbc, 0xc8, 0xfb, 0x5e, 0x3d, 0x29, 0x65, 0x1d, 0x3e, 0xe5, 0x54, 0x64, 0xbe, 0xcc, 0x1a, 0xc2, 0x3c, 0x35, 0x76, 0x81, 0xbe, 0x0b, 0xae, 0x93, 0x3e, 0x84, 0x38, 0x06, 0xbd, 0x6e, 0x74, 0x4b, 0x3e, 0x5e, 0x47, 0x71, 0xbe, 0xae, 0xe6, 0x3e, 0xbc, 0x70, 0x74, 0x67, 0xbe, 0x0f, 0x07, 0x2b, 0xbe, 0x59, 0x32, 0x53, 0x3e, 0x6a, 0xb3, 0x66, 0xbe, 0x67, 0x53, 0x9c, 0xbe, 0x39, 0x83, 0xd8, 0xbd, 0x23, 0xbf, 0x9d, 0x3e, 0x11, 0xc9, 0xa3, 0xbe, 0xa9, 0x88, 0xaa, 0xbe, 0x6c, 0x69, 0x86, 0xbe, 0x60, 0xfc, 0xae, 0xbe, 0x4a, 0xf3, 0xa3, 0xbe, 0xef, 0x9c, 0x35, 0x3d, 0xc3, 0x5e, 0x1d, 0x3e, 0x40, 0x31, 0x15, 0x3c, 0xd5, 0xb0, 0xd8, 0xbd, 0xf4, 0x64, 0x7d, 0xbe, 0xc6, 0x39, 0x50, 0x3e, 0x17, 0x91, 0x95, 0x3e, 0x1b, 0x96, 0x31, 0x3a, 0x4b, 0x5c, 0x4c, 0xbe, 0xca, 0xb3, 0xaf, 0xbe, 0x52, 0xb9, 0x04, 0xbe, 0x8f, 0x67, 0x89, 0x3e, 0x49, 0x78, 0xa8, 0x3e, 0xdb, 0xec, 0xad, 0xbe, 0x2e, 0x77, 0x7f, 0x3e, 0x45, 0x6b, 0x63, 0x3e, 0x1c, 0xdd, 0x6a, 0x3d, 0xfd, 0x4c, 0x38, 0xbd, 0x66, 0xc7, 0x7a, 0xbe, 0x6c, 0x81, 0x30, 0x3e, 0xcd, 0xcf, 0x99, 0xbd, 0xa2, 0x6d, 0x33, 0xbe, 0x74, 0x82, 0x04, 0x3d, 0xb6, 0x36, 0x74, 0xbd, 0xec, 0x49, 0xfe, 0x3d, 0xf0, 0x6a, 0x52, 0x40, 0x6c, 0xab, 0x93, 0x3e, 0x5b, 0x66, 0xb1, 0x3e, 0x27, 0x9d, 0x0b, 0xbe, 0xeb, 0x2c, 0x17, 0x3f, 0xa0, 0xd9, 0x44, 0x3e, 0x7c, 0xfa, 0x0f, 0x3e, 0x9e, 0x1a, 0xf9, 0x3d, 0xa5, 0xac, 0x59, 0xbc, 0xb0, 0x86, 0xec, 0xbd, 0x82, 0x3d, 0xa3, 0x3d, 0x84, 0x40, 0xcb, 0x3e, 0xed, 0x63, 0x6e, 0x40, 0xab, 0x68, 0x95, 0x3f, 0x39, 0xad, 0xe9, 0x3e, 0x7b, 0xd4, 0x39, 0x3e, 0x3b, 0xaf, 0xe8, 0xbd, 0x1a, 0xce, 0xb4, 0x3e, 0x48, 0x31, 0xea, 0x3e, 0x67, 0xe1, 0x7a, 0xbe, 0xc0, 0x73, 0xdb, 0x3e, 0xe6, 0xfc, 0xff, 0xff, 0x04, 0x00, 0x00, 0x00, 0x80, 0x01, 0x00, 0x00, 0x50, 0xe6, 0xa1, 0x3e, 0x95, 0x1a, 0x00, 0xbf, 0x04, 0xe2, 0xc6, 0xbc, 0x27, 0xd2, 0x40, 0x3f, 0x3a, 0x0d, 0x53, 0xbf, 0xa7, 0x50, 0x8e, 0x3d, 0x67, 0xc9, 0x98, 0x3e, 0x7b, 0x83, 0x1f, 0xbf, 0x5e, 0xf3, 0xd8, 0x3d, 0xc5, 0xa1, 0x06, 0x3e, 0xa8, 0xcf, 0x4b, 0xbe, 0xa6, 0x3c, 0x96, 0xbe, 0xae, 0x25, 0x08, 0xbf, 0xf4, 0x20, 0xa2, 0xbd, 0x9c, 0x1b, 0x49, 0x3f, 0x9e, 0xc5, 0x00, 0x3f, 0x81, 0xb2, 0x2c, 0xbf, 0xce, 0xc3, 0xfe, 0xbc, 0xff, 0x51, 0xdf, 0x3e, 0x71, 0xab, 0x23, 0xbf, 0xdd, 0x30, 0x04, 0xbb, 0x83, 0x4d, 0xc9, 0xbe, 0x00, 0x7c, 0x64, 0xbb, 0x08, 0xd5, 0x42, 0xbd, 0x8b, 0x9a, 0x3b, 0x3f, 0xe6, 0x40, 0x8c, 0x3e, 0x9a, 0xcc, 0xbf, 0xbe, 0x7c, 0x96, 0xbb, 0xbe, 0x52, 0x57, 0xcc, 0x3e, 0x49, 0x8d, 0x7d, 0x3f, 0x20, 0xf3, 0x9b, 0x3d, 0x84, 0xa0, 0xa5, 0xbe, 0x58, 0xb7, 0xe8, 0xbd, 0xfb, 0x91, 0x0d, 0xbe, 0xce, 0x3f, 0xa2, 0x3e, 0x8d, 0x70, 0x8e, 0xbf, 0x4d, 0x71, 0x02, 0x3f, 0x4c, 0x5e, 0x61, 0x3d, 0x3a, 0x16, 0x05, 0xbf, 0x84, 0x87, 0x82, 0xbd, 0xb0, 0xcc, 0xf8, 0xbc, 0xfe, 0x68, 0x0a, 0xbe, 0xeb, 0xbe, 0x4b, 0xbe, 0x66, 0x81, 0x65, 0xbe, 0x8b, 0x07, 0x3c, 0xbe, 0x7d, 0xc4, 0x54, 0x3f, 0xdd, 0x48, 0x32, 0xbd, 0x5b, 0x7c, 0xc3, 0xbe, 0x85, 0x90, 0xc8, 0xbe, 0xd8, 0xfb, 0x23, 0x3e, 0xd9, 0x68, 0x47, 0x3f, 0x77, 0xc0, 0xe1, 0xbe, 0xb4, 0x43, 0x88, 0x3f, 0x55, 0x2e, 0x6a, 0x3f, 0xc2, 0x29, 0x90, 0xbd, 0x2d, 0x58, 0x16, 0x3f, 0x99, 0x08, 0xe0, 0x3e, 0xe9, 0xb0, 0x95, 0x3e, 0xd5, 0xcf, 0x76, 0x3e, 0x2d, 0x9f, 0x9a, 0xbe, 0xe3, 0xc2, 0xd9, 0xbe, 0xba, 0xae, 0x19, 0x3e, 0x61, 0x91, 0x76, 0x3f, 0x4a, 0x1a, 0xe3, 0x3e, 0x21, 0x71, 0x19, 0xbf, 0x33, 0xf2, 0xaf, 0xbd, 0x1b, 0x64, 0xd6, 0x3e, 0x54, 0xd6, 0xa3, 0x3e, 0x95, 0xfc, 0x25, 0xbf, 0x21, 0x24, 0x6e, 0xbf, 0x40, 0xd6, 0x33, 0x3e, 0x7d, 0xac, 0x5b, 0xbf, 0x5c, 0x10, 0x26, 0xbf, 0x04, 0x69, 0x26, 0xbf, 0xe8, 0x4e, 0x31, 0x3f, 0x10, 0xbe, 0xba, 0xbe, 0xde, 0x66, 0xd5, 0x3e, 0xcb, 0xea, 0x57, 0x3f, 0x7c, 0xe6, 0x10, 0x3f, 0x21, 0x31, 0x23, 0x3e, 0xdf, 0xff, 0xc3, 0x3e, 0xf5, 0x38, 0xe5, 0xbd, 0xe3, 0xe6, 0x13, 0x3e, 0xdf, 0x65, 0x99, 0x3e, 0xd1, 0x4b, 0xca, 0xbe, 0xed, 0x9b, 0x41, 0x3f, 0xa4, 0x15, 0xca, 0x3e, 0x3c, 0x74, 0x54, 0x3f, 0x2f, 0x7b, 0x87, 0x3e, 0x5f, 0x41, 0x0d, 0xbf, 0xf0, 0x5e, 0xff, 0xbc, 0x5f, 0x71, 0x8d, 0xbe, 0x61, 0x75, 0xce, 0xbe, 0x8b, 0x4c, 0x02, 0xbf, 0x48, 0xc4, 0x8d, 0x3f, 0x14, 0xd5, 0xeb, 0x3e, 0x72, 0xfe, 0xff, 0xff, 0x04, 0x00, 0x00, 0x00, 0x80, 0x00, 0x00, 0x00, 0xcf, 0x55, 0x6a, 0x3e, 0x1f, 0xc4, 0x48, 0x3e, 0x1d, 0x0a, 0x90, 0x3e, 0x34, 0x90, 0x2b, 0xbc, 0xbc, 0x4d, 0xf4, 0x3d, 0x0f, 0x88, 0x83, 0x3e, 0x8b, 0x8c, 0x81, 0x3e, 0x00, 0x00, 0x00, 0x00, 0xa8, 0x17, 0x90, 0x3d, 0x7c, 0xc2, 0xa3, 0xbd, 0x00, 0x00, 0x00, 0x00, 0xe0, 0x69, 0xed, 0x3e, 0x89, 0xfb, 0xbb, 0x3e, 0x00, 0x00, 0x00, 0x00, 0x00, 0x00, 0x00, 0x00, 0x42, 0xef, 0xcd, 0x3e, 0xd8, 0x87, 0x19, 0xbe, 0xf8, 0xba, 0xbf, 0xbb, 0xe3, 0xf1, 0x29, 0xbd, 0x91, 0x34, 0x6b, 0xbd, 0x16, 0xc9, 0x4c, 0xbe, 0x58, 0x56, 0x82, 0x3e, 0x22, 0x6c, 0xa4, 0x3e, 0x28, 0x88, 0x58, 0x3f, 0x54, 0x23, 0xad, 0x3e, 0x97, 0xe4, 0x1c, 0x3e, 0x73, 0xb0, 0x5c, 0xbd, 0x3a, 0x12, 0xf4, 0xbc, 0x6e, 0x3b, 0x19, 0xbe, 0xbb, 0xb9, 0x78, 0x3e, 0x00, 0x00, 0x00, 0x00, 0x6a, 0xb4, 0x9e, 0x3c, 0xfe, 0xfe, 0xff, 0xff, 0x04, 0x00, 0x00, 0x00, 0x40, 0x00, 0x00, 0x00, 0xb6, 0x1a, 0xad, 0xbc, 0xe5, 0xa5, 0x63, 0x3e, 0xe6, 0x71, 0xaa, 0x3d, 0x0a, 0x51, 0xf2, 0x3d, 0x7e, 0x18, 0x17, 0x3e, 0xdc, 0x61, 0xae, 0xbe, 0x00, 0x00, 0x00, 0x00, 0x14, 0x8f, 0xe4, 0x3d, 0xe5, 0x01, 0x41, 0xbc, 0x40, 0xfd, 0x10, 0x3d, 0x8e, 0xc9, 0x36, 0xbd, 0xc0, 0x9c, 0xa1, 0x3e, 0xba, 0x7f, 0x28, 0xbd, 0x83, 0x8a, 0x5d, 0x3d, 0x66, 0xa8, 0x84, 0xbc, 0x66, 0xb8, 0x34, 0x3e, 0x4a, 0xff, 0xff, 0xff, 0x04, 0x00, 0x00, 0x00, 0x14, 0x00, 0x00, 0x00, 0x12, 0x73, 0x78, 0x3d, 0xba, 0xd8, 0x14, 0xbf, 0x83, 0xcb, 0x9d, 0xbd, 0xfe, 0xf6, 0x7e, 0x3d, 0x23, 0xf3, 0x16, 0x3d, 0x14, 0xfa, 0xff, 0xff, 0x18, 0xfa, 0xff, 0xff, 0x0f, 0x00, 0x00, 0x00, 0x4d, 0x4c, 0x49, 0x52, 0x20, 0x43, 0x6f, 0x6e, 0x76, 0x65, 0x72, 0x74, 0x65, 0x64, 0x2e, 0x00, 0x01, 0x00, 0x00, 0x00, 0x14, 0x00, 0x00, 0x00, 0x00, 0x00, 0x0e, 0x00, 0x18, 0x00, 0x14, 0x00, 0x10, 0x00, 0x0c, 0x00, 0x08, 0x00, 0x04, 0x00, 0x0e, 0x00, 0x00, 0x00, 0x14, 0x00, 0x00, 0x00, 0x1c, 0x00, 0x00, 0x00, 0x24, 0x01, 0x00, 0x00, 0x28, 0x01, 0x00, 0x00, 0x2c, 0x01, 0x00, 0x00, 0x04, 0x00, 0x00, 0x00, 0x6d, 0x61, 0x69, 0x6e, 0x00, 0x00, 0x00, 0x00, 0x04, 0x00, 0x00, 0x00, 0xcc, 0x00, 0x00, 0x00, 0x84, 0x00, 0x00, 0x00, 0x50, 0x00, 0x00, 0x00, 0x14, 0x00, 0x00, 0x00, 0x00, 0x00, 0x0e, 0x00, 0x1a, 0x00, 0x14, 0x00, 0x10, 0x00, 0x0c, 0x00, 0x0b, 0x00, 0x04, 0x00, 0x0e, 0x00, 0x00, 0x00, 0x1c, 0x00, 0x00, 0x00, 0x00, 0x00, 0x00, 0x09, 0x1c, 0x00, 0x00, 0x00, 0x20, 0x00, 0x00, 0x00, 0x01, 0x00, 0x00, 0x00, 0x00, 0x00, 0x06, 0x00, 0x08, 0x00, 0x04, 0x00, 0x06, 0x00, 0x00, 0x00, 0x00, 0x00, 0x80, 0x3f, 0x01, 0x00, 0x00, 0x00, 0x0a, 0x00, 0x00, 0x00, 0x01, 0x00, 0x00, 0x00, 0x09, 0x00, 0x00, 0x00, 0x9a, 0xff, 0xff, 0xff, 0x10, 0x00, 0x00, 0x00, 0x00, 0x00, 0x00, 0x08, 0x0c, 0x00, 0x00, 0x00, 0x10, 0x00, 0x00, 0x00, 0xdc, 0xfa, 0xff, 0xff, 0x01, 0x00, 0x00, 0x00, 0x09, 0x00, 0x00, 0x00, 0x03, 0x00, 0x00, 0x00, 0x08, 0x00, 0x00, 0x00, 0x06, 0x00, 0x00, 0x00, 0x01, 0x00, 0x00, 0x00, 0xca, 0xff, 0xff, 0xff, 0x10, 0x00, 0x00, 0x00, 0x00, 0x00, 0x00, 0x08, 0x10, 0x00, 0x00, 0x00, 0x14, 0x00, 0x00, 0x00, 0xba, 0xff, 0xff, 0xff, 0x00, 0x00, 0x00, 0x01, 0x01, 0x00, 0x00, 0x00, 0x08, 0x00, 0x00, 0x00, 0x03, 0x00, 0x00, 0x00, 0x07, 0x00, 0x00, 0x00, 0x05, 0x00, 0x00, 0x00, 0x02, 0x00, 0x00, 0x00, 0x00, 0x00, 0x0e, 0x00, 0x16, 0x00, 0x00, 0x00, 0x10, 0x00, 0x0c, 0x00, 0x0b, 0x00, 0x04, 0x00, 0x0e, 0x00, 0x00, 0x00, 0x18, 0x00, 0x00, 0x00, 0x00, 0x00, 0x00, 0x08, 0x18, 0x00, 0x00, 0x00, 0x1c, 0x00, 0x00, 0x00, 0x00, 0x00, 0x06, 0x00, 0x08, 0x00, 0x07, 0x00, 0x06, 0x00, 0x00, 0x00, 0x00, 0x00, 0x00, 0x01, 0x01, 0x00, 0x00, 0x00, 0x07, 0x00, 0x00, 0x00, 0x03, 0x00, 0x00, 0x00, 0x00, 0x00, 0x00, 0x00, 0x04, 0x00, 0x00, 0x00, 0x03, 0x00, 0x00, 0x00, 0x01, 0x00, 0x00, 0x00, 0x0a, 0x00, 0x00, 0x00, 0x01, 0x00, 0x00, 0x00, 0x00, 0x00, 0x00, 0x00, 0x0b, 0x00, 0x00, 0x00, 0x4c, 0x04, 0x00, 0x00, 0xd8, 0x03, 0x00, 0x00, 0x64, 0x03, 0x00, 0x00, 0x08, 0x03, 0x00, 0x00, 0xb8, 0x02, 0x00, 0x00, 0x68, 0x02, 0x00, 0x00, 0x18, 0x02, 0x00, 0x00, 0x7c, 0x01, 0x00, 0x00, 0xe0, 0x00, 0x00, 0x00, 0x60, 0x00, 0x00, 0x00, 0x04, 0x00, 0x00, 0x00, 0xf6, 0xfb, 0xff, 0xff, 0x00, 0x00, 0x00, 0x01, 0x14, 0x00, 0x00, 0x00, 0x1c, 0x00, 0x00, 0x00, 0x1c, 0x00, 0x00, 0x00, 0x0b, 0x00, 0x00, 0x00, 0x34, 0x00, 0x00, 0x00, 0x02, 0x00, 0x00, 0x00, 0xff, 0xff, 0xff, 0xff, 0x05, 0x00, 0x00, 0x00, 0xe0, 0xfb, 0xff, 0xff, 0x19, 0x00, 0x00, 0x00, 0x53, 0x74, 0x61, 0x74, 0x65, 0x66, 0x75, 0x6c, 0x50, 0x61, 0x72, 0x74, 0x69, 0x74, 0x69, 0x6f, 0x6e, 0x65, 0x64, 0x43, 0x61, 0x6c, 0x6c, 0x3a, 0x30, 0x00, 0x00, 0x00, 0x02, 0x00, 0x00, 0x00, 0x01, 0x00, 0x00, 0x00, 0x05, 0x00, 0x00, 0x00, 0x4e, 0xfc, 0xff, 0xff, 0x00, 0x00, 0x00, 0x01, 0x14, 0x00, 0x00, 0x00, 0x1c, 0x00, 0x00, 0x00, 0x1c, 0x00, 0x00, 0x00, 0x0a, 0x00, 0x00, 0x00, 0x58, 0x00, 0x00, 0x00, 0x02, 0x00, 0x00, 0x00, 0xff, 0xff, 0xff, 0xff, 0x05, 0x00, 0x00, 0x00, 0x38, 0xfc, 0xff, 0xff, 0x3c, 0x00, 0x00, 0x00, 0x73, 0x65, 0x71, 0x75, 0x65, 0x6e, 0x74, 0x69, 0x61, 0x6c, 0x5f, 0x31, 0x32, 0x2f, 0x64, 0x65, 0x6e, 0x73, 0x65, 0x5f, 0x33, 0x38, 0x2f, 0x4d, 0x61, 0x74, 0x4d, 0x75, 0x6c, 0x3b, 0x73, 0x65, 0x71, 0x75, 0x65, 0x6e, 0x74, 0x69, 0x61, 0x6c, 0x5f, 0x31, 0x32, 0x2f, 0x64, 0x65, 0x6e, 0x73, 0x65, 0x5f, 0x33, 0x38, 0x2f, 0x42, 0x69, 0x61, 0x73, 0x41, 0x64, 0x64, 0x00, 0x00, 0x00, 0x00, 0x02, 0x00, 0x00, 0x00, 0x01, 0x00, 0x00, 0x00, 0x05, 0x00, 0x00, 0x00, 0xca, 0xfc, 0xff, 0xff, 0x00, 0x00, 0x00, 0x01, 0x14, 0x00, 0x00, 0x00, 0x1c, 0x00, 0x00, 0x00, 0x1c, 0x00, 0x00, 0x00, 0x09, 0x00, 0x00, 0x00, 0x74, 0x00, 0x00, 0x00, 0x02, 0x00, 0x00, 0x00, 0xff, 0xff, 0xff, 0xff, 0x10, 0x00, 0x00, 0x00, 0xb4, 0xfc, 0xff, 0xff, 0x58, 0x00, 0x00, 0x00, 0x73, 0x65, 0x71, 0x75, 0x65, 0x6e, 0x74, 0x69, 0x61, 0x6c, 0x5f, 0x31, 0x32, 0x2f, 0x64, 0x65, 0x6e, 0x73, 0x65, 0x5f, 0x33, 0x37, 0x2f, 0x4d, 0x61, 0x74, 0x4d, 0x75, 0x6c, 0x3b, 0x73, 0x65, 0x71, 0x75, 0x65, 0x6e, 0x74, 0x69, 0x61, 0x6c, 0x5f, 0x31, 0x32, 0x2f, 0x64, 0x65, 0x6e, 0x73, 0x65, 0x5f, 0x33, 0x37, 0x2f, 0x52, 0x65, 0x6c, 0x75, 0x3b, 0x73, 0x65, 0x71, 0x75, 0x65, 0x6e, 0x74, 0x69, 0x61, 0x6c, 0x5f, 0x31, 0x32, 0x2f, 0x64, 0x65, 0x6e, 0x73, 0x65, 0x5f, 0x33, 0x37, 0x2f, 0x42, 0x69, 0x61, 0x73, 0x41, 0x64, 0x64, 0x00, 0x00, 0x00, 0x00, 0x02, 0x00, 0x00, 0x00, 0x01, 0x00, 0x00, 0x00, 0x10, 0x00, 0x00, 0x00, 0x62, 0xfd, 0xff, 0xff, 0x00, 0x00, 0x00, 0x01, 0x14, 0x00, 0x00, 0x00, 0x1c, 0x00, 0x00, 0x00, 0x1c, 0x00, 0x00, 0x00, 0x08, 0x00, 0x00, 0x00, 0x74, 0x00, 0x00, 0x00, 0x02, 0x00, 0x00, 0x00, 0xff, 0xff, 0xff, 0xff, 0x20, 0x00, 0x00, 0x00, 0x4c, 0xfd, 0xff, 0xff, 0x58, 0x00, 0x00, 0x00, 0x73, 0x65, 0x71, 0x75, 0x65, 0x6e, 0x74, 0x69, 0x61, 0x6c, 0x5f, 0x31, 0x32, 0x2f, 0x64, 0x65, 0x6e, 0x73, 0x65, 0x5f, 0x33, 0x36, 0x2f, 0x4d, 0x61, 0x74, 0x4d, 0x75, 0x6c, 0x3b, 0x73, 0x65, 0x71, 0x75, 0x65, 0x6e, 0x74, 0x69, 0x61, 0x6c, 0x5f, 0x31, 0x32, 0x2f, 0x64, 0x65, 0x6e, 0x73, 0x65, 0x5f, 0x33, 0x36, 0x2f, 0x52, 0x65, 0x6c, 0x75, 0x3b, 0x73, 0x65, 0x71, 0x75, 0x65, 0x6e, 0x74, 0x69, 0x61, 0x6c, 0x5f, 0x31, 0x32, 0x2f, 0x64, 0x65, 0x6e, 0x73, 0x65, 0x5f, 0x33, 0x36, 0x2f, 0x42, 0x69, 0x61, 0x73, 0x41, 0x64, 0x64, 0x00, 0x00, 0x00, 0x00, 0x02, 0x00, 0x00, 0x00, 0x01, 0x00, 0x00, 0x00, 0x20, 0x00, 0x00, 0x00, 0x6a, 0xfe, 0xff, 0xff, 0x00, 0x00, 0x00, 0x01, 0x10, 0x00, 0x00, 0x00, 0x10, 0x00, 0x00, 0x00, 0x07, 0x00, 0x00, 0x00, 0x2c, 0x00, 0x00, 0x00, 0xd4, 0xfd, 0xff, 0xff, 0x1d, 0x00, 0x00, 0x00, 0x73, 0x65, 0x71, 0x75, 0x65, 0x6e, 0x74, 0x69, 0x61, 0x6c, 0x5f, 0x31, 0x32, 0x2f, 0x64, 0x65, 0x6e, 0x73, 0x65, 0x5f, 0x33, 0x38, 0x2f, 0x4d, 0x61, 0x74, 0x4d, 0x75, 0x6c, 0x00, 0x00, 0x00, 0x02, 0x00, 0x00, 0x00, 0x05, 0x00, 0x00, 0x00, 0x10, 0x00, 0x00, 0x00, 0xb6, 0xfe, 0xff, 0xff, 0x00, 0x00, 0x00, 0x01, 0x10, 0x00, 0x00, 0x00, 0x10, 0x00, 0x00, 0x00, 0x06, 0x00, 0x00, 0x00, 0x2c, 0x00, 0x00, 0x00, 0x20, 0xfe, 0xff, 0xff, 0x1d, 0x00, 0x00, 0x00, 0x73, 0x65, 0x71, 0x75, 0x65, 0x6e, 0x74, 0x69, 0x61, 0x6c, 0x5f, 0x31, 0x32, 0x2f, 0x64, 0x65, 0x6e, 0x73, 0x65, 0x5f, 0x33, 0x37, 0x2f, 0x4d, 0x61, 0x74, 0x4d, 0x75, 0x6c, 0x00, 0x00, 0x00, 0x02, 0x00, 0x00, 0x00, 0x10, 0x00, 0x00, 0x00, 0x20, 0x00, 0x00, 0x00, 0x02, 0xff, 0xff, 0xff, 0x00, 0x00, 0x00, 0x01, 0x10, 0x00, 0x00, 0x00, 0x10, 0x00, 0x00, 0x00, 0x05, 0x00, 0x00, 0x00, 0x2c, 0x00, 0x00, 0x00, 0x6c, 0xfe, 0xff, 0xff, 0x1d, 0x00, 0x00, 0x00, 0x73, 0x65, 0x71, 0x75, 0x65, 0x6e, 0x74, 0x69, 0x61, 0x6c, 0x5f, 0x31, 0x32, 0x2f, 0x64, 0x65, 0x6e, 0x73, 0x65, 0x5f, 0x33, 0x36, 0x2f, 0x4d, 0x61, 0x74, 0x4d, 0x75, 0x6c, 0x00, 0x00, 0x00, 0x02, 0x00, 0x00, 0x00, 0x20, 0x00, 0x00, 0x00, 0x03, 0x00, 0x00, 0x00, 0x4e, 0xff, 0xff, 0xff, 0x00, 0x00, 0x00, 0x01, 0x10, 0x00, 0x00, 0x00, 0x10, 0x00, 0x00, 0x00, 0x04, 0x00, 0x00, 0x00, 0x3c, 0x00, 0x00, 0x00, 0xb8, 0xfe, 0xff, 0xff, 0x2d, 0x00, 0x00, 0x00, 0x73, 0x65, 0x71, 0x75, 0x65, 0x6e, 0x74, 0x69, 0x61, 0x6c, 0x5f, 0x31, 0x32, 0x2f, 0x64, 0x65, 0x6e, 0x73, 0x65, 0x5f, 0x33, 0x36, 0x2f, 0x42, 0x69, 0x61, 0x73, 0x41, 0x64, 0x64, 0x2f, 0x52, 0x65, 0x61, 0x64, 0x56, 0x61, 0x72, 0x69, 0x61, 0x62, 0x6c, 0x65, 0x4f, 0x70, 0x00, 0x00, 0x00, 0x01, 0x00, 0x00, 0x00, 0x20, 0x00, 0x00, 0x00, 0xa6, 0xff, 0xff, 0xff, 0x00, 0x00, 0x00, 0x01, 0x10, 0x00, 0x00, 0x00, 0x10, 0x00, 0x00, 0x00, 0x03, 0x00, 0x00, 0x00, 0x3c, 0x00, 0x00, 0x00, 0x10, 0xff, 0xff, 0xff, 0x2d, 0x00, 0x00, 0x00, 0x73, 0x65, 0x71, 0x75, 0x65, 0x6e, 0x74, 0x69, 0x61, 0x6c, 0x5f, 0x31, 0x32, 0x2f, 0x64, 0x65, 0x6e, 0x73, 0x65, 0x5f, 0x33, 0x37, 0x2f, 0x42, 0x69, 0x61, 0x73, 0x41, 0x64, 0x64, 0x2f, 0x52, 0x65, 0x61, 0x64, 0x56, 0x61, 0x72, 0x69, 0x61, 0x62, 0x6c, 0x65, 0x4f, 0x70, 0x00, 0x00, 0x00, 0x01, 0x00, 0x00, 0x00, 0x10, 0x00, 0x00, 0x00, 0x00, 0x00, 0x16, 0x00, 0x18, 0x00, 0x14, 0x00, 0x00, 0x00, 0x10, 0x00, 0x0c, 0x00, 0x08, 0x00, 0x00, 0x00, 0x00, 0x00, 0x00, 0x00, 0x07, 0x00, 0x16, 0x00, 0x00, 0x00, 0x00, 0x00, 0x00, 0x01, 0x10, 0x00, 0x00, 0x00, 0x10, 0x00, 0x00, 0x00, 0x02, 0x00, 0x00, 0x00, 0x3c, 0x00, 0x00, 0x00, 0x80, 0xff, 0xff, 0xff, 0x2d, 0x00, 0x00, 0x00, 0x73, 0x65, 0x71, 0x75, 0x65, 0x6e, 0x74, 0x69, 0x61, 0x6c, 0x5f, 0x31, 0x32, 0x2f, 0x64, 0x65, 0x6e, 0x73, 0x65, 0x5f, 0x33, 0x38, 0x2f, 0x42, 0x69, 0x61, 0x73, 0x41, 0x64, 0x64, 0x2f, 0x52, 0x65, 0x61, 0x64, 0x56, 0x61, 0x72, 0x69, 0x61, 0x62, 0x6c, 0x65, 0x4f, 0x70, 0x00, 0x00, 0x00, 0x01, 0x00, 0x00, 0x00, 0x05, 0x00, 0x00, 0x00, 0x00, 0x00, 0x16, 0x00, 0x1c, 0x00, 0x18, 0x00, 0x00, 0x00, 0x14, 0x00, 0x10, 0x00, 0x0c, 0x00, 0x00, 0x00, 0x00, 0x00, 0x08, 0x00, 0x07, 0x00, 0x16, 0x00, 0x00, 0x00, 0x00, 0x00, 0x00, 0x01, 0x14, 0x00, 0x00, 0x00, 0x20, 0x00, 0x00, 0x00, 0x20, 0x00, 0x00, 0x00, 0x01, 0x00, 0x00, 0x00, 0x40, 0x00, 0x00, 0x00, 0x02, 0x00, 0x00, 0x00, 0xff, 0xff, 0xff, 0xff, 0x03, 0x00, 0x00, 0x00, 0x04, 0x00, 0x04, 0x00, 0x04, 0x00, 0x00, 0x00, 0x20, 0x00, 0x00, 0x00, 0x73, 0x65, 0x72, 0x76, 0x69, 0x6e, 0x67, 0x5f, 0x64, 0x65, 0x66, 0x61, 0x75, 0x6c, 0x74, 0x5f, 0x64, 0x65, 0x6e, 0x73, 0x65, 0x5f, 0x33, 0x36, 0x5f, 0x69, 0x6e, 0x70, 0x75, 0x74, 0x3a, 0x30, 0x00, 0x00, 0x00, 0x00, 0x02, 0x00, 0x00, 0x00, 0x01, 0x00, 0x00, 0x00, 0x03, 0x00, 0x00, 0x00, 0x02, 0x00, 0x00, 0x00, 0x20, 0x00, 0x00, 0x00, 0x04, 0x00, 0x00, 0x00, 0xf4, 0xff, 0xff, 0xff, 0x19, 0x00, 0x00, 0x00, 0x00, 0x00, 0x00, 0x19, 0x0c, 0x00, 0x0c, 0x00, 0x0b, 0x00, 0x00, 0x00, 0x00, 0x00, 0x04, 0x00, 0x0c, 0x00, 0x00, 0x00, 0x09, 0x00, 0x00, 0x00, 0x00, 0x00, 0x00, 0x09 };